2401
4802
6C04
9005
B406
D807
FC08
E252
C0F6
9F9A
7E3F
5CE3
3B88
1A2C
1DAE
3F0A
6066
81C1
A31D
C478
E5D4
F958
DA70
BB89
9CA1
7DB9
5ED2
3FEA
2102
021A
06A8
2590
4477
635F
8247
A12E
C016
DEFE
FDE6
E551
C8AF
AC0D
8F6B
72C9
5627
3985
1CE3
0041
1AAF
3751
53F3
7095
8D37
A9D9
C67B
E31D
FFBF
E5B5
CB2E
B0A7
9620
7B98
6111
468A
2C03
117C
1A4B
34D2
4F59
69E0
8468
9EEF
B976
D3FD
EE84
F79F
DF0B
C677
ADE4
9550
7CBC
6428
4B94
3300
1A6D
01D9
0861
20F5
3989
521C
6AB0
8344
9BD8
B46C
CD00
E593
FE27
EAF1
D42C
BD66
A6A1
8FDC
7917
6251
4B8C
34C7
1E02
073C
150F
2BD4
429A
595F
7024
86E9
9DAF
B474
CB39
E1FE
F8C4
F19C
DC83
C76A
B251
9D39
8820
7307
5DEF
48D6
33BD
1EA5
098C
0E64
237D
3896
4DAF
62C7
77E0
8CF9
A211
B72A
CC43
E15B
F674
F54D
E1C1
CE36
BAAA
A71E
9393
8007
6C7B
58F0
4564
31D9
1E4D
0AC1
0AB3
1E3F
31CA
4556
58E2
6C6D
7FF9
9385
A710
BA9C
CE27
E1B3
F53F
F7DB
E5BF
D3A4
C188
AF6C
9D50
8B35
7919
66FD
54E2
42C6
30AA
1E8E
0C73
0825
1A41
2C5C
3E78
5094
62B0
74CB
86E7
9903
AB1E
BD3A
CF56
E172
F38D
FAC1
E9FA
D933
C86D
B7A6
A6DF
9618
8551
748A
63C3
52FC
4235
316E
20A7
0FE0
053F
1606
26CD
3793
485A
5921
69E8
7AAF
8B76
9C3D
AD04
BDCB
CE92
DF59
F020
FF2A
EF9F
E014
D089
C0FE
B173
A1E8
925C
82D1
7346
63BB
5430
44A5
3519
258E
1603
0678
00D6
1061
1FEC
2F77
3F02
4E8D
5E18
6DA4
7D2F
8CBA
9C45
ABD0
BB5B
CAE7
DA72
E9FD
F988
F798
E931
DACA
CC64
BDFD
AF97
A130
92C9
8463
75FC
6796
592F
4AC8
3C62
2DFB
1F94
112E
02C7
0868
16CF
2536
339C
4203
5069
5ED0
6D37
7B9D
8A04
986A
A6D1
B538
C39E
D205
E06C
EED2
FD39
F53B
E7E4
DA8C
CD35
BFDD
B286
A52E
97D6
8A7F
7D27
6FD0
6278
5521
47C9
3A72
2D1A
1FC2
126B
0513
0AC5
181C
2574
32CB
4023
4D7A
5AD2
682A
7581
82D9
9030
9D88
AADF
B837
C58E
D2E6
E03E
ED95
FAED
F857
EBFB
DF9E
D342
C6E6
BA89
AE2D
A1D0
9574
8917
7CBB
705E
6402
57A5
4B49
3EED
3290
2634
19D7
0D7B
011E
07A9
1405
2062
2CBE
391A
4577
51D3
5E30
6A8C
76E9
8345
8FA2
9BFE
A85B
B4B7
C113
CD70
D9CC
E629
F285
FEE2
F595
EA22
DEAE
D33A
C7C6
BC52
B0DF
A56B
99F7
8E83
8310
779C
6C28
60B4
5540
49CD
3E59
32E5
2771
1BFD
108A
0516
0A6B
15DE
2152
2CC6
383A
43AE
4F21
5A95
6609
717D
7CF0
8864
93D8
9F4C
AAC0
B633
C1A7
CD1B
D88F
E403
EF76
FAEA
FA1A
EF7E
E4E1
DA45
CFA9
C50D
BA70
AFD4
A538
9A9C
8FFF
8563
7AC7
702B
658E
5AF2
5056
45BA
3B1D
3081
25E5
1B49
10AC
0610
05E6
1082
1B1F
25BB
3057
3AF3
4590
502C
5AC8
6564
7001
7A9D
8539
8FD5
9A72
A50E
AFAA
BA46
C4E3
CF7F
DA1B
E4B7
EF54
F9F0
FBC9
F1F5
E820
DE4C
D477
CAA3
C0CE
B6FA
AD25
A350
997C
8FA7
85D3
7BFE
722A
6855
5E81
54AC
4AD8
4103
372E
2D5A
2385
19B1
0FDC
0608
0437
0E0B
17E0
21B4
2B89
355D
3F32
4906
52DB
5CB0
6684
7059
7A2D
8402
8DD6
97AB
A17F
AB54
B528
BEFD
C8D2
D2A6
DC7B
E64F
F024
F9F8
FC7B
F35F
EA44
E128
D80D
CEF1
C5D5
BCBA
B39E
AA83
A167
984C
8F30
8615
7CF9
73DE
6AC2
61A7
588B
4F70
4654
3D39
341D
2B02
21E6
18CA
0FAF
0693
0385
0CA1
15BC
1ED8
27F3
310F
3A2B
4346
4C62
557D
5E99
67B4
70D0
79EB
8307
8C22
953E
9E59
A775
B090
B9AC
C2C7
CBE3
D4FE
DE1A
E736
F051
F96D
FDA8
F537
ECC7
E457
DBE7
D377
CB07
C297
BA27
B1B6
A946
A0D6
9866
8FF6
8786
7F16
76A6
6E36
65C5
5D55
54E5
4C75
4405
3B95
3325
2AB5
2244
19D4
1164
08F4
0084
0258
0AC9
1339
1BA9
2419
2C89
34F9
3D69
45D9
4E4A
56BA
5F2A
679A
700A
787A
80EA
895A
91CA
9A3B
A2AB
AB1B
B38B
BBFB
C46B
CCDB
D54B
DDBC
E62C
EE9C
F70C
FF7C
F8A9
F0D8
E906
E135
D964
D192
C9C1
C1F0
BA1F
B24D
AA7C
A2AB
9AD9
9308
8B37
8366
7B94
73C3
6BF2
6420
5C4F
547E
4CAC
44DB
3D0A
3539
2D67
2596
1DC5
15F3
0E22
0651
0757
0F28
16FA
1ECB
269C
2E6E
363F
3E10
45E1
4DB3
5584
5D55
6527
6CF8
74C9
7C9A
846C
8C3D
940E
9BE0
A3B1
AB82
B354
BB25
C2F6
CAC7
D299
DA6A
E23B
EA0D
F1DE
F9AF
FE9C
F75E
F01F
E8E1
E1A3
DA65
D327
CBE9
C4AA
BD6C
B62E
AEF0
A7B2
A074
9935
91F7
8AB9
837B
7C3D
74FF
6DC0
6682
5F44
5806
50C8
498A
424B
3B0D
33CF
2C91
2553
1E15
16D6
0F98
085A
011C
0164
08A2
0FE1
171F
1E5D
259B
2CD9
3417
3B56
4294
49D2
5110
584E
5F8C
66CB
6E09
7547
7C85
83C3
8B01
9240
997E
A0BC
A7FA
AF38
B676
BDB5
C4F3
CC31
D36F
DAAD
E1EB
E92A
F068
F7A6
FEE4
FA51
F39B
ECE6
E630
DF7A
D8C4
D20E
CB58
C4A2
BDED
B737
B081
A9CB
A315
9C5F
95AA
8EF4
883E
8188
7AD2
741C
6D67
66B1
5FFB
5945
528F
4BD9
4523
3E6E
37B8
3102
2A4C
2396
1CE0
162B
0F75
08BF
0209
05AF
0C65
131A
19D0
2086
273C
2DF2
34A8
3B5E
4213
48C9
4F7F
5635
5CEB
63A1
6A56
710C
77C2
7E78
852E
8BE4
9299
994F
A005
A6BB
AD71
B427
BADD
C192
C848
CEFE
D5B4
DC6A
E320
E9D5
F08B
F741
FDF7
FBAB
F574
EF3C
E904
E2CD
DC95
D65E
D026
C9EF
C3B7
BD80
B748
B111
AAD9
A4A1
9E6A
9832
91FB
8BC3
858C
7F54
791D
72E5
6CAE
6676
603E
5A07
53CF
4D98
4760
4129
3AF1
34BA
2E82
284A
2213
1BDB
15A4
0F6C
0935
02FD
0455
0A8C
10C4
16FC
1D33
236B
29A2
2FDA
3611
3C49
4280
48B8
4EEF
5527
5B5F
6196
67CE
6E05
743D
7A74
80AC
86E3
8D1B
9352
998A
9FC2
A5F9
AC31
B268
B8A0
BED7
C50F
CB46
D17E
D7B6
DDED
E425
EA5C
F094
F6CB
FD03
FD02
F740
F17D
EBBB
E5F8
E036
DA73
D4B1
CEEE
C92C
C369
BDA6
B7E4
B221
AC5F
A69C
A0DA
9B17
9555
8F92
89D0
840D
7E4B
7888
72C5
6D03
6740
617E
5BBB
55F9
5036
4A74
44B1
3EEF
392C
336A
2DA7
27E5
2222
1C5F
169D
10DA
0B18
0555
02FE
08C0
0E83
1445
1A08
1FCA
258D
2B4F
3112
36D4
3C97
425A
481C
4DDF
53A1
5964
5F26
64E9
6AAB
706E
7630
7BF3
81B5
8778
8D3B
92FD
98C0
9E82
A445
AA07
AFCA
B58C
BB4F
C111
C6D4
CC96
D259
D81B
DDDE
E3A1
E963
EF26
F4E8
FAAB
FF9B
FA45
F4EF
EF98
EA42
E4EC
DF96
DA40
D4EA
CF94
CA3E
C4E7
BF91
BA3B
B4E5
AF8F
AA39
A4E3
9F8C
9A36
94E0
8F8A
8A34
84DE
7F88
7A32
74DB
6F85
6A2F
64D9
5F83
5A2D
54D7
4F81
4A2A
44D4
3F7E
3A28
34D2
2F7C
2A26
24D0
1F79
1A23
14CD
0F77
0A21
04CB
0065
05BB
0B11
1068
15BE
1B14
206A
25C0
2B16
306C
35C2
3B19
406F
45C5
4B1B
5071
55C7
5B1D
6074
65CA
6B20
7076
75CC
7B22
8078
85CE
8B25
907B
95D1
9B27
A07D
A5D3
AB29
B07F
B5D6
BB2C
C082
C5D8
CB2E
D084
D5DA
DB30
E087
E5DD
EB33
F089
F5DF
FB35
FF7F
FA8D
F59C
F0AA
EBB8
E6C6
E1D5
DCE3
D7F1
D300
CE0E
C91C
C42B
BF39
BA47
B556
B064
AB72
A681
A18F
9C9D
97AB
92BA
8DC8
88D6
83E5
7EF3
7A01
7510
701E
6B2C
663B
6149
5C57
5765
5274
4D82
4890
439F
3EAD
39BB
34CA
2FD8
2AE6
25F5
2103
1C11
1720
122E
0D3C
084A
0359
0081
0573
0A64
0F56
1448
193A
1E2B
231D
280F
2D00
31F2
36E4
3BD5
40C7
45B9
4AAA
4F9C
548E
597F
5E71
6363
6855
6D46
7238
772A
7C1B
810D
85FF
8AF0
8FE2
94D4
99C5
9EB7
A3A9
A89B
AD8C
B27E
B770
BC61
C153
C645
CB36
D028
D51A
DA0B
DEFD
E3EF
E8E0
EDD2
F2C4
F7B6
FCA7
FE85
F9F1
F55C
F0C7
EC33
E79E
E309
DE75
D9E0
D54B
D0B7
CC22
C78E
C2F9
BE64
B9D0
B53B
B0A6
AC12
A77D
A2E9
9E54
99BF
952B
9096
8C01
876D
82D8
7E44
79AF
751A
7086
6BF1
675C
62C8
5E33
599E
550A
5075
4BE1
474C
42B7
3E23
398E
34F9
3065
2BD0
273C
22A7
1E12
197E
14E9
1054
0BC0
072B
0296
017B
060F
0AA4
0F39
13CD
1862
1CF7
218B
2620
2AB5
2F49
33DE
3872
3D07
419C
4630
4AC5
4F5A
53EE
5883
5D17
61AC
6641
6AD5
6F6A
73FF
7893
7D28
81BC
8651
8AE6
8F7A
940F
98A4
9D38
A1CD
A662
AAF6
AF8B
B41F
B8B4
BD49
C1DD
C672
CB07
CF9B
D430
D8C4
DD59
E1EE
E682
EB17
EFAC
F440
F8D5
FD6A
FE27
F9E9
F5AA
F16C
ED2E
E8EF
E4B1
E072
DC34
D7F6
D3B7
CF79
CB3A
C6FC
C2BD
BE7F
BA41
B602
B1C4
AD85
A947
A508
A0CA
9C8C
984D
940F
8FD0
8B92
8754
8315
7ED7
7A98
765A
721B
6DDD
699F
6560
6122
5CE3
58A5
5466
5028
4BEA
47AB
436D
3F2E
3AF0
36B2
3273
2E35
29F6
25B8
2179
1D3B
18FD
14BE
1080
0C41
0803
03C4
01D9
0617
0A56
0E94
12D2
1711
1B4F
1F8E
23CC
280A
2C49
3087
34C6
3904
3D43
4181
45BF
49FE
4E3C
527B
56B9
5AF8
5F36
6374
67B3
6BF1
7030
746E
78AC
7CEB
8129
8568
89A6
8DE5
9223
9661
9AA0
9EDE
A31D
A75B
AB9A
AFD8
B416
B855
BC93
C0D2
C510
C94E
CD8D
D1CB
D60A
DA48
DE87
E2C5
E703
EB42
EF80
F3BF
F7FD
FC3C
FF8F
FBA0
F7B2
F3C3
EFD5
EBE6
E7F8
E409
E01B
DC2C
D83E
D44F
D060
CC72
C883
C495
C0A6
BCB8
B8C9
B4DB
B0EC
ACFE
A90F
A520
A132
9D43
9955
9566
9178
8D89
899B
85AC
81BE
7DCF
79E0
75F2
7203
6E15
6A26
6638
6249
5E5B
5A6C
567E
528F
4EA0
4AB2
46C3
42D5
3EE6
3AF8
3709
331B
2F2C
2B3D
274F
2360
1F72
1B83
1795
13A6
0FB8
0BC9
07DB
03EC
0071
0460
084E
0C3D
102B
141A
1808
1BF7
1FE5
23D4
27C2
2BB1
2FA0
338E
377D
3B6B
3F5A
4348
4737
4B25
4F14
5302
56F1
5AE0
5ECE
62BD
66AB
6A9A
6E88
7277
7665
7A54
7E42
8231
8620
8A0E
8DFD
91EB
95DA
99C8
9DB7
A1A5
A594
A982
AD71
B160
B54E
B93D
BD2B
C11A
C508
C8F7
CCE5
D0D4
D4C3
D8B1
DCA0
E08E
E47D
E86B
EC5A
F048
F437
F825
FC14
FFFE
FC59
F8B5
F510
F16B
EDC7
EA22
E67E
E2D9
DF35
DB90
D7EC
D447
D0A3
CCFE
C959
C5B5
C210
BE6C
BAC7
B723
B37E
AFDA
AC35
A891
A4EC
A148
9DA3
99FE
965A
92B5
8F11
8B6C
87C8
8423
807F
7CDA
7936
7591
71EC
6E48
6AA3
66FF
635A
5FB6
5C11
586D
54C8
5124
4D7F
49DA
4636
4291
3EED
3B48
37A4
33FF
305B
2CB6
2912
256D
21C8
1E24
1A7F
16DB
1336
0F92
0BED
0849
04A4
0100
0002
03A7
074B
0AF0
0E95
1239
15DE
1982
1D27
20CB
2470
2814
2BB9
2F5D
3302
36A7
3A4B
3DF0
4194
4539
48DD
4C82
5026
53CB
576F
5B14
5EB9
625D
6602
69A6
6D4B
70EF
7494
7838
7BDD
7F81
8326
86CA
8A6F
8E14
91B8
955D
9901
9CA6
A04A
A3EF
A793
AB38
AEDC
B281
B626
B9CA
BD6F
C113
C4B8
C85C
CC01
CFA5
D34A
D6EE
DA93
DE38
E1DC
E581
E925
ECCA
F06E
F413
F7B7
FB5C
FF00
FD8D
FA2D
F6CD
F36D
F00D
ECAD
E94D
E5ED
E28D
DF2D
DBCD
D86D
D50D
D1AD
CE4D
CAED
C78D
C42D
C0CD
BD6D
BA0D
B6AD
B34D
AFED
AC8D
A92D
A5CD
A26D
9F0D
9BAD
984D
94ED
918D
8E2D
8ACD
876D
840D
80AD
7D4D
79ED
768D
732D
6FCD
6C6D
690D
65AD
624D
5EED
5B8D
582D
54CE
516E
4E0E
4AAE
474E
43EE
408E
3D2E
39CE
366E
330E
2FAE
2C4E
28EE
258E
222E
1ECE
1B6E
180E
14AE
114E
0DEE
0A8E
072E
03CE
006E
0273
05D3
0933
0C93
0FF3
1353
16B3
1A13
1D73
20D3
2433
2793
2AF3
2E53
31B3
3513
3873
3BD3
3F33
4293
45F3
4953
4CB3
5013
5373
56D3
5A33
5D93
60F3
6453
67B3
6B13
6E73
71D3
7533
7893
7BF3
7F53
82B3
8613
8973
8CD3
9033
9393
96F3
9A53
9DB3
A113
A473
A7D3
AB32
AE92
B1F2
B552
B8B2
BC12
BF72
C2D2
C632
C992
CCF2
D052
D3B2
D712
DA72
DDD2
E132
E492
E7F2
EB52
EEB2
F212
F572
F8D2
FC32
FF92
FD45
FA25
F704
F3E4
F0C3
EDA3
EA83
E762
E442
E121
DE01
DAE0
D7C0
D49F
D17F
CE5E
CB3E
C81D
C4FD
C1DD
BEBC
BB9C
B87B
B55B
B23A
AF1A
ABF9
A8D9
A5B8
A298
9F77
9C57
9937
9616
92F6
8FD5
8CB5
8994
8674
8353
8033
7D12
79F2
76D1
73B1
7091
6D70
6A50
672F
640F
60EE
5DCE
5AAD
578D
546C
514C
4E2B
4B0B
47EB
44CA
41AA
3E89
3B69
3848
3528
3207
2EE7
2BC6
28A6
2585
2265
1F45
1C24
1904
15E3
12C3
0FA2
0C82
0961
0641
0320
